{"weightsInputHidden":{"rows":10,"cols":5,"data":[[0.33160277704317243,0.64789234040195309,-0.7188272158237301,-0.54513094925560568,-0.0027812724014657508],[1.2921530999193724,-2.3798560402744191,-0.41930488563110346,-1.0081749814278727,0.63058721070670853],[0.84191564370035921,0.1376445810951501,0.71640688260849883,0.85152439877607056,-0.44876989882847751],[0.16255604902401388,-1.8819838082980884,-0.8043455154655248,0.9192040861641545,0.7810351642691693],[0.74016094381928488,-0.79961528805997939,-0.48755887313166579,-0.27760925669111747,0.15271158240537136],[1.4889754393896362,0.91733921594793877,-0.46938018662360503,-0.36049690313982125,-0.28060685543875374],[-0.0072119678404237719,0.88027476606903354,1.1618348549292272,0.9085043193346376,-0.57553699965380922],[0.093695328148871271,-0.4590417370494595,0.11090218606912638,-0.45464810237970577,-0.76456378203097908],[-0.080806155462259333,1.546780305878358,-0.63821057399651526,0.10158415748811511,1.5659988760993828],[-0.21807450299061582,0.53884966640798948,0.33816733459856696,0.271468518540474,0.74107732518626257]]},"weightsHiddenOutput":{"rows":2,"cols":10,"data":[[0.93622457885007582,-1.116015279145113,0.71767980103110385,0.94137455799680891,0.79578877693971684,-0.54264225909325847,-0.20031244549914839,0.55878204086738736,0.48344296192910652,-0.461511252682015],[0.82849859065771958,0.78508038715695982,1.579012724743146,0.99011845658597586,-0.36220082145286758,0.19531758349350459,-0.71409499909301222,0.80790256327386123,-0.578421398800994,2.7465349830754668]]},"biasHidden":{"rows":10,"cols":1,"data":[[0.101621078536964],[0.10018696221531687],[0.650302586914181],[0.67997459027915008],[-1.1074447534981144],[-0.29629359186445181],[0.838595285936536],[0.41085696938021909],[0.87298808589097687],[-0.81049940819409649]]},"biasOutput":{"rows":2,"cols":1,"data":[[0.88847291930041883],[-0.4208281186506283]]}}