{"weightsInputHidden":{"rows":10,"cols":5,"data":[[1.5282357757939344,-2.0921705699489386,-0.57194940175360043,0.62008281686347111,0.19250223987399107],[-0.003041589388772914,1.3894558577518885,0.0029088740282906568,0.72847598132869185,-0.13402315747645832],[-1.9377471615555288,-0.073360451353387424,0.03893496973932048,1.5954115062546761,-0.61961296369990837],[-0.4808657547694688,0.82934461585085806,2.0977853839559839,0.062392699381097927,0.3804071299640196],[-0.18601960812875451,-0.23253796215263844,-0.38275238077470797,-0.733532945675737,-1.8441978263886658],[-0.31863680054881843,-1.4596021677316426,0.31517640189974405,-0.89709971603596828,-0.998070862745215],[1.1408878179591162,1.0387875310897703,-1.0762115811984907,-0.22542026255560565,-0.30181404885918289],[-0.71716043608995061,-0.220387271059934,0.025632762932049066,2.1162437536137824,0.83787757611177971],[1.7397482392257841,0.53923508653696617,-1.5456265849285646,2.3700368262990374,1.7680501873228769],[-2.2489744541608823,0.59744662959009709,1.5750263343877007,0.087137947365240276,-1.2043700790544138]]},"weightsHiddenOutput":{"rows":2,"cols":10,"data":[[-1.6454977449811206,0.36363738838752613,-0.44557772246549721,0.011516881646363553,0.98941838132744753,-0.97327149958136472,-1.6058794070382847,0.14673883335047355,0.82429235997058126,1.4617934696353625],[-0.70601138896010607,0.92153565674136884,-0.535064657299097,-0.1866566168152245,-0.80365528560433341,-0.14422951246156468,0.63672890704199381,0.14567759867645402,-0.41361675582424828,0.87260931813512976]]},"biasHidden":{"rows":10,"cols":1,"data":[[-1.1651717831935562],[-2.0486002628523554],[-1.3834897860760307],[0.55071203976595651],[-1.3315677633774268],[-0.33130630967681279],[1.9793557830702864],[-0.28142811981330307],[3.547651709460296],[0.44404597943979862]]},"biasOutput":{"rows":2,"cols":1,"data":[[0.61078300420051],[0.24192812263037566]]}}